TRT-101303-EntropyCalibration2
images: 3ca9d08d
846: 3ce5ba8d
357: 3cada334
358: 3cada334
849: 3ca13861
361: 3c2342a6
852: 3c890b77
364: 3c890b77
855: 3c058607
858: 3c9f886d
369: 3cb3d72a
370: 3c8b5553
861: 3c817e39
373: 3c66c104
864: 3cdff7c3
376: 3cdff7c3
867: 3c1c1f0e
379: 3c2d0f25
380: 3c2d0f25
870: 3c4f17e7
383: 3c4f17e7
873: 3cb82651
386: 3cdc0a25
876: 3bb4fb7d
389: 3c4ad6de
390: 3c4ad6de
879: 3c6b92b4
393: 3c4d0c51
882: 3c5507f5
396: 3c5cc5df
885: 3c5e11f2
888: 3c33bb4e
401: 3c88a11f
402: 3c9e51c5
891: 3bf6df37
405: 3bf60c18
894: 3c5360c9
408: 3c562e3d
897: 3c3a170d
411: 3c406bf3
412: 3c406bf3
900: 3c351e84
415: 3c346fa3
903: 3c3225b5
418: 3c1f1807
906: 3c2ea2d0
421: 3c855849
422: 3c942ce8
909: 3c395f6f
425: 3c395f6f
912: 3c47041d
428: 3c345efe
915: 3c28fb9a
431: 3c861396
432: 3ca787c2
918: 3c5c388e
435: 3c6610cb
921: 3c3116df
438: 3c23a054
924: 3c34ee1b
927: 3c031e36
443: 3c57c3a5
444: 3c6e80e4
930: 3c13d6c5
447: 3c13a009
933: 3c3dc3ce
450: 3c143ffc
936: 3c033485
453: 3c42a091
454: 3c4e9ab1
939: 3c14bd9f
457: 3c1b891a
942: 3c221e4e
460: 3c07e9ed
945: 3bf8f1b5
463: 3c463cc2
464: 3c5fc272
948: 3c1fb227
467: 3c1a242a
951: 3c3ef006
470: 3c16ee51
954: 3bf2998c
473: 3c43d59f
474: 3c43d59f
957: 3c37e83f
477: 3c1a74d1
960: 3c376ef1
480: 3c1f7f57
963: 3c0ae783
483: 3c2d1d72
484: 3c584f35
966: 3c358aae
487: 3c332a01
969: 3c75dc9f
490: 3c1f1397
972: 3c19e220
493: 3c6a43b8
494: 3c89090c
975: 3c364542
497: 3c24db7b
978: 3c0e612c
500: 3c0e612c
981: 3c31b481
984: 3c12f7f0
505: 3c539112
506: 3c539112
987: 3c5f1523
509: 3c19caa0
990: 3c3a1a62
512: 3c07fa0f
993: 3c1c10b6
515: 3c46e3b2
516: 3c5b6cc4
996: 3c452cad
519: 3c15d7ae
999: 3c6324e5
522: 3be19589
1002: 3c4ae2ea
525: 3c8b6a79
526: 3c8fb8e2
527: 3ca6d7c7
528_output: 0
ONNXTRT_Broadcast_output: 0
529: 3ca6d7c7
priors: 3c0012b2
714: 3e0f3208
584: 3d991b0d
715: 3e0f3208
810: 3e2ea44b
667: 3e082aa9
580: 3db485d0
730: 3d2a21d3
811: 3e2ea44b
603: 3db874b2
665: 3d945830
680: 3e082aa9
776: 3e22b296
596: 3cfa4ef1
602: 3d824c7d
825: 3d25dd59
575: 3ca7c6bc
589: 3cd4ce34
647: 3d817b75
793: 3d7eecb6
617: 3db874b2
713: 3d8e231d
649: 3d48a960
839: 3d25dd59
695: 3d30ec8d
597: 3d0732ed
577: 3d152abf
588: 3ccb1bec
696: 3c019350
650: 3d244942
700: 3d8e231d
826: 3d25dd59
632: 3e278f88
conf: 3c0101c5
728: 3e0f3208
699: 3d8e231d
681: 3d30ec8d
proto: 3e253560
586: 3d1389e6
698: 3d26fa0d
595: 3c7a3792
842: 3e20f45f
601: 3dd6bdee
648: 3c02141d
550: 3c9ae42e
551: 3c107d08
552: 3c9d82a2
795: 3d1b0f39
697: 3d4672e1
778: 3d1855f5
796: 3d1b0f39
579: 3cfb7275
794: 3d649780
619: 3e278f88
576: 3d466c69
581: 3dc374da
598: 3e0ff1d8
809: 3d1b0f39
583: 3d0038ab
587: 3d09174f
666: 3e082aa9
824: 3e2ea44b
744: 3c052fa5
745: 3d86dba0
792: 3c00f6ac
777: 3d1855f5
652: 3d945830
747: 3d4d6990
746: 3d4f05fd
748: 3d4d6990
743: 3d2a21d3
634: 3d817b75
682: 3d30ec8d
Softmax_339_output: 3c00fe33
840: 3c00dd11
599: 3e0d0249
761: 3d4d6990
604: 3db874b2
729: 3d2a21d3
594: 3c7a3792
762: 3e22b296
578: 3d061775
633: 3d817b75
763: 3e22b296
791: 3d1855f5
585: 3da66569
loc: 3dc0070e
582: 3cef2fa9
651: 3d945830
mask: 3c0101fb
618: 3e278f88
573: 3c976439
574: 3c238306
